
#include <stdint.h>

const unsigned char model_data[] = {
28,0,0,0,84,70,76,51,20,0,32,0,28,0,24,0,20,0,16,0,12,0,0,0,8,0,4,0,20,0,0,0,28,0,0,0,152,0,0,0,240,0,0,0,24,32,0,0,40,32,0,0,220,37,0,0,3,0,0,0,1,0,0,0,16,0,0,0,0,0,10,0,16,0,12,0,8,0,4,0,10,0,0,0,12,0,0,0,28,0,0,0,60,0,0,0,15,0,0,0,115,101,114,118,105,110,103,95,100,101,102,97,117,108,116,0,1,0,0,0,4,0,0,0,144,255,255,255,10,0,0,0,4,0,0,0,8,0,0,0,111,117,116,112,117,116,95,48,0,0,0,0,1,0,0,0,4,0,0,0,206,223,255,255,4,0,0,0,14,0,0,0,107,101,114,97,115,95,116,101,110,115,111,114,95,56,0,0,2,0,0,0,52,0,0,0,4,0,0,0,220,255,255,255,13,0,0,0,4,0,0,0,19,0,0,0,67,79,78,86,69,82,83,73,79,78,95,77,69,84,65,68,65,84,65,0,8,0,12,0,8,0,4,0,8,0,0,0,12,0,0,0,4,0,0,0,19,0,0,0,109,105,110,95,114,117,110,116,105,109,101,95,118,101,114,115,105,111,110,0,14,0,0,0,36,31,0,0,28,31,0,0,140,30,0,0,124,26,0,0,100,26,0,0,20,26,0,0,196,25,0,0,180,0,0,0,172,0,0,0,164,0,0,0,156,0,0,0,148,0,0,0,116,0,0,0,4,0,0,0,130,224,255,255,4,0,0,0,96,0,0,0,16,0,0,0,0,0,0,0,8,0,14,0,8,0,4,0,8,0,0,0,16,0,0,0,36,0,0,0,0,0,6,0,8,0,4,0,6,0,0,0,4,0,0,0,0,0,0,0,12,0,24,0,20,0,16,0,12,0,4,0,12,0,0,0,4,47,47,40,110,181,82,87,2,0,0,0,2,0,0,0,4,0,0,0,6,0,0,0,50,46,49,57,46,48,0,0,238,224,255,255,4,0,0,0,16,0,0,0,49,46,53,46,48,0,0,0,0,0,0,0,0,0,0,0,8,220,255,255,12,220,255,255,16,220,255,255,20,220,255,255,26,225,255,255,4,0,0,0,0,25,0,0,191,40,49,61,199,73,243,61,177,246,132,189,33,10,23,190,157,7,206,189,215,139,127,189,123,127,166,61,212,144,133,189,252,34,38,190,19,107,43,189,187,67,44,61,83,179,195,61,171,146,253,59,2,151,31,190,232,104,17,61,244,101,55,187,172,155,25,62,11,211,49,190,55,120,112,62,244,233,20,62,52,78,6,62,9,27,9,190,94,118,145,62,136,241,32,190,157,169,41,61,192,55,42,62,164,44,142,62,108,140,178,59,172,22,151,62,105,45,9,190,112,252,22,189,31,22,147,189,86,54,140,189,76,233,216,189,93,160,117,61,145,177,213,189,50,169,168,61,81,57,44,62,29,85,212,189,77,46,71,62,65,1,156,189,88,95,20,190,25,66,50,61,165,94,90,62,139,84,50,189,238,67,60,62,11,175,3,62,166,212,80,189,160,214,185,61,69,255,176,188,9,175,44,190,193,210,171,189,123,104,210,61,53,20,79,190,37,57,136,61,145,84,130,190,176,146,170,189,224,81,248,189,233,2,31,61,17,134,39,62,106,5,223,61,200,33,140,60,215,191,9,62,216,65,29,62,147,78,38,62,45,93,93,62,109,188,36,189,59,202,24,62,245,45,87,62,203,13,50,60,141,252,193,189,193,61,76,62,255,5,27,62,213,217,59,62,32,162,234,189,133,150,20,190,120,98,120,62,117,64,32,189,185,24,237,188,21,93,100,62,66,110,69,62,14,105,218,189,104,172,26,190,165,40,192,189,224,230,57,189,118,7,131,189,25,132,128,62,244,236,202,61,165,19,171,189,14,205,206,61,16,184,78,190,225,231,38,61,194,85,250,189,86,123,29,62,206,160,0,62,131,52,120,189,29,75,131,189,82,212,76,62,118,217,63,190,201,49,114,189,55,52,250,61,56,85,71,62,29,254,10,190,29,181,73,62,185,241,7,189,219,70,99,62,214,217,81,189,167,123,45,62,215,238,77,62,145,106,158,189,116,86,225,187,198,146,85,190,35,32,24,61,52,11,72,190,157,114,192,188,122,115,94,190,46,86,12,62,147,65,62,62,222,162,64,61,196,17,152,60,163,211,17,190,10,195,0,190,157,153,49,190,104,72,11,61,34,25,41,62,114,149,42,190,116,49,155,60,239,69,85,62,105,42,107,62,110,73,44,190,160,173,150,189,248,230,34,190,77,160,108,189,103,130,16,62,134,214,77,62,196,27,6,189,240,16,104,62,74,160,83,62,151,58,75,190,156,43,40,61,220,32,243,189,30,90,16,188,2,61,18,62,10,245,114,62,103,159,125,61,112,37,139,60,158,15,50,190,21,112,186,61,51,37,235,60,252,98,19,190,26,27,68,189,2,0,218,61,194,213,109,188,135,255,187,61,133,177,183,189,165,175,204,61,83,3,30,62,175,184,1,189,201,77,165,189,109,58,35,190,192,133,140,61,7,35,73,62,119,172,47,62,111,12,86,190,125,185,11,61,125,248,160,61,58,246,133,62,28,135,144,61,196,47,134,62,92,137,213,188,9,11,128,62,104,167,78,190,124,120,117,61,145,70,21,62,34,47,248,61,204,27,23,190,81,8,191,61,60,151,79,62,225,75,3,62,117,251,140,61,243,226,62,190,63,195,233,189,36,174,186,59,207,205,26,60,52,156,27,190,111,128,115,61,187,84,57,190,131,82,101,189,80,239,72,59,163,103,24,61,33,139,140,188,161,186,104,188,196,232,112,62,196,26,24,190,133,47,168,188,164,44,40,190,117,245,6,190,248,224,248,188,101,10,208,60,12,154,24,62,184,126,74,61,48,153,102,188,98,233,33,190,124,100,172,61,82,37,66,62,8,231,77,189,164,209,246,61,72,87,158,61,124,3,198,189,162,34,28,62,232,66,184,188,128,13,71,61,128,187,158,189,206,154,95,190,208,8,220,188,66,81,161,189,163,117,227,189,191,169,43,190,198,44,50,190,20,9,125,189,198,11,17,190,129,79,6,190,220,106,91,62,129,131,214,189,121,21,31,190,176,103,24,61,4,8,94,189,251,3,242,189,11,147,33,190,160,67,41,61,54,165,51,62,100,169,91,62,26,110,32,190,0,134,177,58,137,217,233,189,208,123,25,60,32,56,236,61,200,33,81,190,220,116,177,189,102,112,3,190,129,207,243,189,18,82,90,190,94,81,51,62,35,2,68,190,160,230,93,61,246,47,56,190,88,82,2,62,174,19,84,190,140,107,46,190,120,92,254,188,96,84,62,61,40,238,151,189,210,120,33,62,64,133,119,61,32,101,209,59,188,74,59,189,226,158,80,190,192,181,26,61,224,137,252,60,244,93,194,61,16,71,189,60,240,203,68,189,212,157,192,189,80,41,23,60,28,119,76,189,244,200,183,61,212,14,180,189,138,85,47,190,124,169,64,189,96,145,72,190,240,40,103,188,168,99,136,60,148,174,245,61,24,11,114,61,166,96,16,190,180,86,84,189,53,26,86,190,28,240,112,189,84,227,32,62,140,3,20,62,70,71,251,189,110,42,63,62,166,5,206,189,210,230,136,189,152,42,162,61,172,168,250,189,156,90,68,62,144,14,24,60,66,81,89,62,178,249,76,190,221,37,100,190,4,159,48,190,132,228,169,61,112,219,42,190,192,118,163,61,50,215,201,189,144,150,93,60,194,226,47,62,40,179,78,189,28,184,80,190,200,36,76,190,202,79,114,189,90,13,7,62,131,112,36,190,196,169,130,189,181,229,7,62,5,157,37,190,199,133,71,61,185,249,213,61,185,47,185,61,226,20,62,189,7,32,105,189,195,175,202,188,57,59,199,61,62,25,23,62,231,232,20,190,88,84,88,189,102,202,131,60,160,177,106,62,80,82,140,60,31,195,15,190,66,206,169,188,105,166,254,189,135,101,94,62,22,166,129,61,123,234,49,62,105,4,130,62,60,159,13,189,39,87,188,61,245,130,3,62,153,146,16,62,239,240,230,61,52,64,166,61,13,34,144,61,181,211,132,61,240,4,84,62,45,179,185,60,183,14,43,62,124,72,201,61,0,135,136,61,157,182,175,61,252,11,90,62,93,165,45,189,82,116,2,59,167,221,217,59,205,117,124,59,225,34,188,189,43,218,3,62,170,192,201,60,127,133,181,189,61,221,100,62,48,97,90,190,105,183,217,189,99,0,5,189,80,15,15,190,118,54,40,60,162,201,132,62,135,129,42,62,133,90,18,190,233,3,233,60,246,83,219,61,195,233,198,186,64,177,120,55,102,45,74,190,22,75,127,189,75,247,107,189,6,9,119,189,189,252,32,188,110,39,22,190,57,83,228,61,50,85,142,188,46,212,159,189,33,79,236,189,176,232,35,62,221,171,130,62,47,183,69,189,228,163,63,62,180,243,247,189,18,28,85,62,101,242,100,62,39,117,159,61,234,63,31,190,206,103,211,60,79,70,208,189,33,241,106,62,69,206,18,62,170,198,93,61,30,93,114,62,190,160,11,62,105,152,33,190,79,191,123,62,144,9,238,61,196,7,26,190,139,218,16,190,86,241,14,62,51,82,56,189,84,70,101,189,51,147,110,62,228,10,1,190,192,21,160,189,223,158,59,62,149,180,91,61,98,74,130,62,143,187,39,190,44,67,27,62,116,72,250,189,132,245,51,62,131,162,123,61,115,209,221,189,99,154,8,62,168,179,250,189,152,99,202,189,248,73,34,61,208,255,179,186,8,204,191,189,178,100,45,190,152,66,249,189,243,220,169,60,211,179,22,190,34,150,50,62,240,175,89,62,23,21,243,61,227,210,22,190,3,45,17,190,149,92,56,59,46,222,155,188,32,235,35,190,17,100,11,190,20,93,62,190,148,166,228,61,41,125,153,189,135,150,39,188,159,195,239,61,219,212,154,61,126,16,158,61,226,93,40,187,238,177,110,61,150,83,12,62,78,116,138,60,175,140,29,190,176,253,23,189,61,86,213,60,67,93,1,62,219,131,6,61,157,93,3,188,61,49,134,61,39,136,113,62,107,68,16,190,145,155,130,189,93,160,19,61,43,91,47,190,149,8,134,62,226,77,110,62,212,214,227,61,160,244,132,188,140,136,45,62,27,91,166,189,233,73,230,188,56,231,23,190,254,120,136,62,78,241,157,189,76,229,71,62,225,207,168,189,80,197,167,61,166,67,53,190,30,119,238,188,84,203,122,190,208,60,47,190,252,66,184,188,253,180,130,62,189,165,247,189,140,190,27,62,69,61,57,190,31,231,126,62,120,236,165,188,17,240,26,62,206,93,202,60,151,18,110,62,255,135,50,190,16,229,64,62,67,95,153,61,136,106,35,62,44,132,159,189,170,181,12,190,248,69,250,61,210,153,225,61,241,201,117,189,134,149,161,61,197,174,182,189,32,176,118,62,254,50,50,190,166,237,245,189,92,152,44,190,180,161,252,189,128,147,13,190,25,148,162,61,219,176,222,189,121,155,222,61,121,243,229,61,191,233,4,62,175,12,146,61,68,162,84,62,226,166,36,61,60,55,200,188,237,35,118,62,89,18,201,61,13,95,86,61,26,32,56,62,158,137,123,59,89,158,41,62,127,120,2,61,104,32,25,62,211,116,38,190,68,235,85,62,130,225,167,61,94,243,28,190,252,248,74,190,53,152,219,61,7,57,67,188,178,21,12,62,208,95,168,188,4,77,89,62,51,202,129,190,106,253,17,62,179,52,232,61,165,238,48,190,130,5,228,59,156,232,178,61,100,116,145,190,83,170,63,190,154,65,134,190,245,51,209,189,121,240,53,190,236,156,68,190,210,20,78,62,16,35,119,190,83,42,87,62,73,70,113,190,203,137,68,62,144,34,81,190,0,45,70,62,184,82,30,190,129,245,95,62,201,83,140,61,70,223,154,188,169,179,87,61,166,173,226,189,205,79,71,62,200,214,1,189,90,68,45,62,67,189,212,189,83,104,73,62,168,104,2,189,15,183,15,62,48,106,48,189,176,159,128,62,27,4,50,190,45,144,36,190,126,102,66,190,38,59,213,60,111,143,234,61,210,31,159,189,176,229,205,189,165,224,37,62,162,112,28,189,70,231,116,60,57,30,6,190,84,29,71,62,209,233,136,189,30,241,7,62,222,190,92,188,209,203,64,62,188,49,183,61,202,59,164,189,74,158,88,190,14,92,131,61,173,165,114,189,135,89,215,60,136,102,37,61,67,171,18,62,101,201,30,62,196,221,110,62,1,153,196,61,125,187,8,190,167,162,109,189,208,34,0,62,163,190,44,62,79,159,211,61,159,170,38,60,103,137,143,189,7,117,49,188,184,163,52,62,203,90,244,189,17,51,221,61,184,216,112,62,221,109,115,189,210,151,180,189,173,177,31,190,169,213,118,62,134,121,79,190,249,79,198,189,118,253,26,190,193,147,86,189,228,86,61,62,63,54,134,61,168,158,138,188,47,93,101,190,126,199,109,190,180,9,174,189,64,227,1,189,187,228,6,62,251,128,81,62,163,21,42,189,215,93,253,59,139,151,156,60,50,47,53,62,24,131,28,61,138,246,176,189,76,74,9,190,235,157,146,189,145,173,81,62,92,159,29,190,34,103,241,188,253,69,167,188,85,203,252,189,215,205,8,190,144,91,35,190,46,85,42,190,60,127,64,189,219,119,221,189,102,31,97,62,160,104,9,62,26,42,115,61,16,134,108,190,2,201,46,190,212,243,78,190,137,23,26,189,69,230,136,189,97,87,247,61,67,98,8,190,227,230,148,61,163,102,99,190,89,97,28,189,121,60,195,189,193,186,51,189,44,182,232,61,133,186,11,62,139,165,48,190,139,33,131,188,210,103,131,189,129,182,0,62,228,103,38,190,117,163,248,61,79,91,159,59,238,94,104,190,84,182,3,62,8,161,129,60,147,38,247,189,4,74,85,62,0,232,112,188,153,178,27,190,86,33,235,61,232,82,168,189,178,78,12,190,116,40,75,189,59,83,193,189,29,202,62,62,107,6,73,190,0,105,232,61,33,234,82,190,112,172,18,62,175,10,191,188,22,229,246,60,219,138,19,190,249,178,66,62,247,57,112,189,127,117,150,61,240,90,101,190,91,166,83,190,33,156,34,62,189,6,174,189,4,25,41,62,211,17,146,61,70,22,144,60,164,88,213,187,86,174,240,61,47,202,5,62,237,20,132,189,143,7,46,189,36,115,47,190,213,244,167,61,1,160,150,60,137,1,38,61,211,114,4,189,117,12,166,61,21,87,19,62,191,197,108,190,208,1,233,61,123,33,214,189,132,17,6,61,32,90,143,189,160,211,188,59,132,0,222,61,104,251,115,61,100,164,186,189,48,163,37,61,28,146,186,189,158,68,3,190,32,77,63,61,88,167,169,61,36,252,3,62,214,240,182,189,164,61,129,61,252,6,214,61,38,6,38,62,134,85,88,62,244,225,3,62,200,43,3,190,188,14,164,189,186,5,36,190,152,144,73,190,80,65,24,62,218,184,80,190,124,229,35,189,27,224,243,189,8,89,42,61,0,145,101,61,2,45,15,190,216,247,144,189,126,13,9,62,0,238,16,59,68,171,65,189,178,194,173,189,232,44,198,189,192,174,178,188,120,211,85,189,192,155,87,61,138,243,53,62,215,14,54,190,92,148,18,190,182,75,128,189,38,6,11,190,112,110,66,190,75,141,0,190,213,254,231,189,248,130,222,61,12,140,158,189,148,11,7,62,208,30,234,60,40,217,200,61,252,152,46,62,120,197,155,188,50,121,7,190,2,11,78,62,245,224,236,189,192,153,213,59,6,65,82,62,246,10,172,189,144,163,18,189,236,37,199,61,20,166,210,61,136,219,17,61,99,123,74,190,16,101,45,190,81,216,248,189,104,98,101,62,30,190,42,62,104,177,156,189,124,249,69,62,218,82,26,190,100,15,20,189,196,182,48,62,32,113,232,59,138,65,102,190,110,135,214,189,142,147,25,190,160,88,44,188,216,159,72,190,88,202,64,190,162,106,32,190,208,61,71,188,100,229,89,189,116,99,87,190,56,197,99,61,108,76,81,62,208,37,58,61,192,100,247,61,160,99,157,189,254,199,26,190,4,130,103,62,16,173,77,62,91,72,8,190,150,120,21,62,136,190,67,62,218,163,177,189,34,222,7,190,36,176,26,190,72,119,190,188,170,176,25,62,172,1,206,189,88,212,97,190,198,155,105,189,90,222,136,189,107,227,203,59,243,195,112,61,57,139,34,62,117,27,96,189,97,132,148,189,77,241,63,190,38,247,184,61,189,226,20,190,183,12,92,190,178,203,53,61,187,29,216,189,124,99,100,61,250,186,110,190,230,237,210,61,9,179,191,189,62,0,78,189,122,201,107,190,218,25,165,61,85,173,60,190,155,83,44,61,9,131,129,189,121,203,154,189,138,170,20,61,201,233,43,62,19,62,43,190,49,248,77,61,133,222,204,61,46,66,190,187,232,198,28,62,132,195,189,188,225,239,138,189,30,22,49,62,210,124,144,62,111,247,128,62,92,189,83,62,200,104,81,62,144,69,107,62,185,77,211,60,224,0,99,62,232,187,46,190,58,103,144,61,7,161,167,61,101,244,71,190,174,104,153,61,167,201,106,190,88,105,27,61,172,144,29,62,180,71,201,189,56,193,2,190,250,118,129,62,20,207,165,61,162,205,140,189,72,114,209,189,209,126,38,189,213,182,180,61,27,174,76,61,170,255,134,189,54,71,7,190,185,96,131,190,181,6,224,61,165,149,152,61,52,96,66,62,248,143,104,61,126,37,202,189,3,96,30,62,228,162,152,60,179,240,12,190,40,136,53,62,192,172,13,190,0,61,46,190,84,155,164,61,200,42,77,60,93,185,25,62,218,35,67,62,198,93,197,189,73,211,49,62,4,193,246,61,18,37,74,60,154,185,42,190,205,56,12,62,28,130,16,190,25,166,14,62,31,101,60,62,164,121,25,62,240,221,30,190,6,19,244,61,51,123,82,62,54,88,211,189,253,219,45,61,238,222,202,189,25,171,221,61,248,86,86,189,116,12,173,61,174,53,219,189,167,66,53,60,253,6,17,62,56,19,239,61,24,92,183,189,180,117,49,62,156,94,195,189,135,62,43,62,232,58,204,61,3,208,35,62,83,141,55,62,164,246,68,62,75,160,99,61,171,153,93,62,189,100,150,60,226,120,216,61,207,242,95,61,255,242,156,61,93,54,118,62,153,40,115,189,246,40,113,187,164,93,19,62,172,27,36,62,174,177,223,61,126,227,222,61,145,187,16,60,226,15,63,61,118,23,31,60,247,133,142,190,198,81,143,60,163,174,68,190,161,108,253,188,228,173,157,60,49,243,12,190,51,210,135,190,184,190,41,62,59,63,135,190,234,162,24,59,134,112,65,57,200,1,213,61,196,87,15,62,146,118,154,189,227,173,20,190,238,239,12,61,58,208,233,189,113,216,86,190,12,247,121,62,241,247,199,189,130,3,123,62,56,93,30,62,102,111,41,60,95,193,56,61,146,60,94,62,177,251,107,62,73,188,1,62,146,134,75,62,155,44,95,62,244,245,145,188,145,254,27,62,154,131,174,61,146,17,14,190,54,165,52,62,150,56,81,190,224,124,33,59,148,164,101,190,16,206,49,190,58,87,17,190,17,11,201,189,208,248,192,61,70,32,249,61,123,181,66,190,242,249,133,61,4,187,241,61,227,204,132,61,159,154,158,61,157,182,95,62,110,84,205,189,180,12,57,187,191,108,77,189,175,84,80,190,0,201,255,187,39,232,106,62,147,180,94,62,255,17,229,61,75,136,52,189,7,85,146,189,170,145,238,189,178,110,5,190,84,211,43,61,75,142,172,61,230,74,39,190,90,125,217,61,247,188,73,61,164,3,5,190,225,184,82,189,117,158,77,62,96,27,103,61,42,0,168,189,15,205,103,62,245,105,69,189,52,36,137,61,148,235,140,189,51,212,34,60,154,210,233,189,0,220,98,186,250,67,62,190,246,143,50,62,80,144,146,189,8,179,200,61,57,60,37,190,176,55,90,60,176,20,198,188,54,239,30,190,139,72,74,190,132,143,170,61,152,230,85,190,150,105,129,189,135,193,102,190,220,95,91,62,4,173,116,189,176,53,181,188,234,224,66,62,224,250,169,60,152,32,202,61,192,81,49,188,246,161,242,189,140,151,223,61,38,41,158,189,114,100,81,62,126,205,22,62,184,125,220,188,11,226,78,190,156,183,5,62,58,222,235,189,128,15,207,58,124,34,115,189,241,185,9,190,219,114,64,190,16,238,98,61,48,38,243,188,152,154,236,189,192,44,94,189,224,172,253,61,48,164,46,189,10,31,210,189,101,223,61,190,88,39,235,61,176,195,60,62,186,38,15,190,72,75,80,61,176,6,22,190,4,100,57,190,28,110,253,189,142,38,56,62,64,111,152,188,179,227,48,190,114,106,162,189,0,69,86,60,128,14,200,188,108,77,248,61,139,78,26,190,18,170,170,189,66,235,28,190,174,38,52,62,52,161,99,62,88,2,108,61,203,116,77,190,243,122,84,190,12,29,72,189,120,242,96,62,56,209,44,189,4,191,148,61,216,20,153,189,160,92,147,59,0,1,10,187,102,189,78,62,160,130,43,60,72,228,60,61,218,250,90,190,192,24,126,61,242,2,199,189,56,86,23,62,74,106,30,190,208,169,86,62,160,37,238,188,96,1,142,61,72,254,177,60,144,161,103,62,33,78,15,190,6,14,13,190,208,62,183,61,162,173,1,62,236,68,26,62,156,130,142,189,182,253,163,189,18,202,103,190,128,228,252,59,62,158,27,62,86,123,173,189,106,93,90,190,168,184,142,60,75,9,224,189,156,120,183,189,164,90,251,61,26,195,1,189,135,251,71,62,5,97,87,189,3,198,157,188,207,78,125,189,54,75,64,190,251,139,17,62,220,149,169,189,119,130,123,61,132,246,28,62,110,80,211,61,109,54,153,61,249,252,207,60,51,34,161,188,39,47,85,189,172,111,1,190,38,84,192,189,17,8,12,61,152,19,58,190,53,170,15,190,138,148,64,62,113,205,126,190,226,100,4,188,152,147,151,61,111,75,187,61,215,131,198,189,4,113,75,189,41,216,129,62,184,47,116,188,180,121,31,190,176,222,252,61,90,199,212,187,51,255,33,62,33,138,247,61,16,235,188,61,44,135,36,190,192,116,28,188,84,252,216,61,44,191,60,190,172,230,219,187,31,98,51,190,4,164,112,62,117,85,98,189,13,28,17,62,55,83,70,190,50,17,87,62,214,211,95,190,4,237,128,61,56,148,70,61,62,135,201,60,90,5,11,62,61,53,76,62,87,115,199,189,81,174,86,62,128,51,1,62,241,220,199,61,248,47,191,61,132,94,21,190,7,116,194,189,126,227,10,189,47,161,14,61,186,79,182,61,161,117,179,58,222,172,85,189,217,74,125,189,54,87,83,190,168,92,158,59,59,171,17,62,57,15,26,62,131,241,21,62,22,142,135,61,170,14,192,60,85,196,209,61,222,199,57,190,112,234,11,190,151,50,88,60,171,68,98,62,72,177,57,62,154,53,220,189,102,65,246,189,17,3,30,189,88,249,23,190,194,161,39,190,177,62,158,189,7,171,28,190,128,176,71,190,15,251,121,61,93,178,11,62,51,92,98,62,128,69,108,62,237,142,200,189,144,179,22,189,178,100,65,62,132,74,1,189,69,48,0,60,158,162,102,62,237,47,17,190,115,26,45,62,194,54,164,61,104,162,254,61,247,149,40,189,67,186,247,61,215,65,38,190,123,149,37,189,108,161,37,62,181,149,210,61,142,159,212,188,220,66,157,189,114,163,175,61,138,201,11,62,236,230,62,61,153,53,232,60,182,220,122,61,228,141,202,189,147,164,14,62,73,231,13,188,133,198,62,190,84,188,67,189,55,107,225,189,242,186,221,188,192,115,69,190,149,157,131,62,98,172,51,190,158,18,221,188,149,103,41,62,222,134,44,62,221,183,99,61,65,174,145,189,230,174,64,189,3,183,14,62,105,254,245,59,126,147,142,59,202,69,234,61,63,6,192,61,197,44,86,61,213,51,125,190,210,107,109,187,180,1,239,59,218,12,93,62,154,10,77,190,128,255,152,60,42,232,187,61,131,185,84,62,125,78,51,190,76,241,148,61,220,112,47,62,2,24,48,190,24,13,128,62,2,71,39,62,131,162,59,189,192,24,22,62,157,162,128,188,65,160,250,61,64,177,57,190,104,226,6,61,12,185,0,62,205,133,2,60,48,56,90,62,97,97,146,188,58,139,144,61,255,217,249,189,125,182,1,190,178,133,223,189,108,173,231,189,215,96,16,190,188,7,61,62,227,142,139,61,72,171,40,61,234,135,31,62,10,239,220,60,110,141,93,62,154,175,120,62,246,188,135,188,13,24,3,62,188,1,173,61,7,170,47,62,103,34,10,62,187,254,17,62,52,225,18,190,225,132,204,188,220,204,149,189,211,169,239,189,51,231,133,61,224,198,43,62,35,225,17,188,254,241,248,189,6,243,12,62,103,68,37,62,3,95,187,189,23,44,240,61,200,177,252,189,99,53,61,189,213,159,43,190,74,248,77,189,11,114,75,62,116,126,6,62,83,141,9,190,201,17,13,62,75,5,242,60,149,53,125,61,102,111,76,62,238,158,42,189,59,61,95,62,71,228,137,61,124,177,171,61,101,151,96,60,62,120,62,62,179,123,39,62,80,0,78,62,25,218,23,62,244,14,107,189,30,211,199,189,52,28,55,190,192,244,30,190,153,5,46,190,170,135,176,189,142,208,32,62,48,82,192,189,11,197,64,60,181,110,38,190,37,172,89,61,106,19,1,62,76,65,59,62,44,34,96,61,140,93,34,189,178,74,66,62,242,7,216,59,100,47,10,190,5,17,128,189,245,215,230,61,98,72,68,62,227,218,153,61,79,206,168,61,94,17,218,61,145,58,204,188,47,183,220,188,218,132,36,190,164,43,83,61,199,240,30,61,236,116,49,61,106,38,53,62,9,111,15,62,183,19,43,190,113,81,113,187,48,241,125,189,41,32,67,190,137,157,173,61,146,163,141,60,212,118,64,62,186,70,55,189,33,74,162,189,71,111,189,189,233,241,157,61,72,131,178,60,168,243,135,188,213,48,34,62,240,95,101,189,1,232,102,62,182,107,126,61,222,195,185,189,224,200,74,60,78,177,164,189,166,150,133,60,59,251,72,59,42,160,142,62,177,111,10,62,223,166,229,189,176,243,152,189,249,205,62,61,239,118,137,62,133,210,142,61,91,72,116,62,255,80,3,62,197,84,41,61,15,187,38,61,74,106,222,61,111,184,255,61,179,179,127,62,241,149,143,188,140,84,148,188,189,32,23,61,155,251,45,62,19,47,211,188,242,168,20,190,214,184,73,62,22,47,50,190,48,65,31,190,129,249,97,61,246,198,0,61,70,41,15,60,196,47,247,60,150,77,181,59,108,179,115,62,37,222,37,62,167,11,184,189,17,189,177,189,37,201,140,189,36,163,154,189,187,44,45,61,187,180,139,61,200,81,93,189,207,131,48,187,63,84,109,190,75,226,6,190,40,237,91,190,48,53,151,60,99,207,156,189,89,173,101,190,182,101,168,189,155,7,55,189,177,52,82,62,12,194,117,61,78,104,180,61,243,175,206,61,97,204,70,62,69,46,238,60,252,23,83,62,152,200,59,62,219,100,158,189,241,124,24,190,11,168,96,62,88,150,165,188,126,9,25,190,2,99,243,61,29,9,28,190,192,137,190,189,189,29,222,60,119,175,154,187,63,52,29,62,188,127,14,61,216,123,5,189,138,193,25,190,119,161,136,62,181,72,37,190,134,123,66,62,21,68,43,62,228,39,156,61,95,25,85,62,64,114,181,189,116,118,181,59,188,0,180,189,36,19,137,62,199,58,160,189,102,118,158,61,206,22,224,189,77,90,10,189,193,71,217,188,226,105,237,61,245,0,17,189,198,177,77,60,101,150,18,62,104,94,242,189,230,123,205,61,145,105,136,188,135,18,235,189,49,97,184,61,251,197,1,62,234,62,54,189,25,193,55,62,48,232,53,189,148,91,45,190,252,148,25,190,211,165,81,189,206,117,131,61,86,168,109,62,147,100,78,190,95,173,132,189,120,31,44,62,195,237,237,189,250,225,25,61,209,57,37,61,198,105,184,188,87,207,90,189,1,107,132,189,27,145,61,188,247,159,83,189,38,209,144,188,88,94,118,61,86,140,70,62,248,90,42,188,219,231,63,62,133,221,59,188,20,148,22,190,176,147,200,61,193,153,58,190,143,147,54,62,24,197,48,62,79,96,45,62,154,12,207,61,46,21,154,61,57,203,246,61,216,155,50,62,86,86,151,60,47,112,54,62,55,130,35,190,189,181,182,189,198,49,52,62,5,22,48,190,235,52,200,60,63,174,178,60,153,110,144,189,208,192,14,190,66,245,214,61,250,252,48,62,117,155,180,189,233,103,132,188,208,177,14,62,21,118,58,190,33,160,5,189,94,100,59,62,127,11,242,189,54,123,152,61,166,233,22,62,90,237,195,188,157,79,74,62,208,90,14,190,185,92,56,189,207,113,107,190,193,48,78,187,33,231,123,190,149,1,3,62,220,36,219,61,158,170,81,189,190,151,68,62,226,5,2,62,132,151,57,190,232,51,97,62,175,167,5,62,11,157,61,62,64,181,81,62,191,86,114,62,194,249,73,62,166,209,18,62,141,15,47,62,46,163,28,60,193,95,2,190,201,224,245,61,140,208,13,61,136,116,135,60,190,187,163,61,247,194,63,62,2,23,252,61,32,81,17,60,121,108,158,61,41,219,64,61,104,0,209,61,96,77,37,190,9,231,248,61,50,24,62,62,254,200,5,190,23,252,237,61,11,41,221,188,40,44,227,187,152,228,130,190,73,16,10,62,44,13,37,188,150,73,224,188,98,202,232,189,234,22,237,61,130,63,141,60,222,62,23,62,115,155,231,61,11,73,153,189,136,166,184,61,225,72,198,61,240,85,172,61,205,128,38,190,211,46,130,61,226,118,23,60,41,203,77,62,80,183,20,61,145,144,104,62,45,237,217,189,124,22,16,62,198,123,230,189,77,162,46,62,152,85,54,62,18,97,68,61,8,254,34,62,113,14,236,60,143,194,229,60,187,65,194,60,195,27,62,190,214,230,42,62,167,198,174,188,186,176,88,190,197,196,43,62,99,211,98,189,227,71,185,58,121,12,24,190,200,63,32,190,211,114,113,190,121,67,107,190,65,45,46,190,26,125,35,190,184,172,34,62,237,12,119,190,227,2,62,190,87,194,152,60,89,45,12,62,38,250,255,255,4,0,0,0,64,0,0,0,58,135,130,60,80,7,68,60,0,0,0,0,33,146,162,60,172,5,5,61,56,188,191,60,128,104,104,188,0,0,0,0,227,36,119,59,70,216,12,60,0,0,0,0,167,161,34,60,192,110,2,61,80,173,40,61,133,254,89,188,146,240,143,188,114,250,255,255,4,0,0,0,64,0,0,0,122,199,52,187,69,238,84,59,217,148,71,61,183,9,69,61,2,139,160,188,3,85,83,61,110,74,230,60,5,121,60,187,195,112,34,60,49,63,111,186,90,190,81,187,0,0,0,0,146,241,238,60,0,0,0,0,82,218,102,60,0,0,0,0,190,250,255,255,4,0,0,0,8,0,0,0,42,11,52,59,44,11,52,187,210,250,255,255,4,0,0,0,0,4,0,0,56,208,182,62,192,123,10,190,58,241,40,190,195,11,38,61,164,242,143,61,27,183,88,61,76,207,203,189,152,22,38,61,12,6,250,61,255,20,246,189,128,161,22,60,55,140,255,61,233,145,239,61,169,207,206,62,77,96,192,62,79,251,143,61,7,76,171,62,72,232,217,60,208,151,188,188,232,36,181,190,199,31,185,190,36,160,68,62,229,16,187,190,108,121,221,190,86,46,74,62,195,48,50,62,90,243,87,62,138,122,108,62,180,176,127,190,100,149,35,62,233,232,216,190,56,9,41,189,171,200,87,62,17,223,31,62,30,48,87,190,62,132,134,190,196,142,22,61,221,237,156,62,12,22,218,190,194,140,11,62,82,58,129,190,227,186,22,60,156,52,159,189,53,133,210,190,109,37,95,190,244,102,212,62,161,136,206,189,253,36,39,190,65,34,67,62,122,155,141,190,8,153,107,61,155,92,238,189,175,111,172,62,224,206,167,62,103,204,211,190,254,219,85,62,87,58,185,190,238,218,37,189,180,245,142,61,4,18,228,61,176,246,135,61,54,158,175,62,129,32,129,190,190,68,130,190,123,45,189,190,205,71,154,62,141,18,152,62,40,146,105,190,76,237,147,190,183,141,137,62,184,163,63,62,130,212,4,62,110,162,185,189,234,2,153,62,149,146,216,62,252,203,170,62,217,175,221,190,199,132,201,190,229,217,21,190,55,12,141,190,99,58,5,63,96,150,242,62,120,84,247,189,17,64,71,190,182,1,178,190,161,211,131,62,221,95,11,190,81,210,172,62,91,180,6,63,3,182,150,190,128,172,187,187,33,98,223,61,234,147,5,62,75,16,188,62,1,239,183,61,17,220,176,62,8,49,81,190,186,37,83,190,205,95,123,190,190,13,74,189,36,55,126,62,151,126,153,62,227,150,172,189,52,208,133,190,215,205,222,190,169,18,226,62,58,212,81,190,248,1,134,189,191,246,181,62,38,149,125,62,77,123,27,190,195,142,219,190,93,57,121,190,19,91,120,62,157,11,192,190,82,25,153,62,149,227,236,190,248,0,39,62,78,127,234,60,146,47,167,190,140,112,82,190,112,164,189,61,209,102,138,62,106,190,154,189,250,225,201,62,211,115,236,62,197,169,159,188,187,195,151,62,121,56,15,62,128,2,114,189,84,120,67,190,43,49,39,62,8,123,146,62,221,180,149,187,199,172,161,62,231,32,169,62,116,215,186,62,104,63,172,190,36,93,129,61,189,127,253,62,121,122,129,62,175,128,27,189,189,75,121,190,139,253,241,61,254,250,231,59,90,242,178,190,114,159,0,62,82,150,216,190,198,174,20,189,100,105,255,58,48,71,206,188,134,142,20,62,126,85,209,61,249,81,216,190,220,105,213,189,179,19,149,62,123,168,184,62,243,126,155,62,74,90,93,61,16,130,162,190,186,248,141,62,146,195,134,62,4,22,27,190,5,12,177,62,8,76,157,62,169,181,232,189,254,40,174,62,128,107,130,190,88,132,253,189,78,83,145,62,250,95,115,190,163,158,208,62,112,42,47,190,117,244,32,61,121,177,179,189,211,94,27,62,189,233,154,190,244,44,226,61,120,160,99,190,128,74,18,61,206,97,217,190,14,175,196,190,60,98,42,190,64,100,191,59,178,6,207,190,160,0,33,61,30,15,156,190,4,20,196,61,28,155,14,190,182,176,91,62,141,17,95,190,92,30,173,189,91,117,38,190,7,70,223,62,76,153,170,190,112,65,89,59,134,94,42,190,136,15,158,62,192,229,39,60,198,157,101,62,155,97,81,190,211,126,194,190,153,8,139,62,197,251,13,62,194,81,199,62,210,68,64,190,27,235,129,62,46,0,161,190,176,130,55,190,136,65,37,190,20,189,187,190,246,59,91,62,37,194,187,62,216,22,176,189,104,202,101,61,0,127,173,187,22,29,219,190,176,102,157,190,21,126,147,62,96,103,202,189,184,58,181,189,228,133,147,61,159,164,107,190,240,5,108,189,78,0,194,190,29,37,133,190,101,151,195,190,38,31,175,62,153,208,28,62,130,234,217,62,88,8,28,62,237,112,179,62,215,94,162,190,30,85,87,62,16,152,117,190,155,226,51,190,97,107,217,62,181,255,16,61,68,74,142,190,198,38,45,190,4,62,227,189,101,230,192,62,194,120,64,190,6,162,45,62,236,243,241,61,32,69,205,189,86,91,0,62,98,196,43,62,151,14,221,190,32,40,84,61,164,80,224,61,15,108,209,190,150,158,173,190,232,34,120,190,16,215,151,190,112,6,231,189,222,254,255,255,4,0,0,0,128,0,0,0,97,230,157,61,174,249,242,62,190,78,73,61,79,76,170,62,185,20,245,189,196,170,152,189,219,237,190,62,117,239,232,58,80,38,170,190,65,85,197,62,91,236,157,62,178,179,171,190,99,228,54,62,78,211,248,190,211,222,17,63,165,207,7,191,211,76,252,62,138,87,2,63,179,158,105,190,154,47,35,62,10,6,214,62,170,133,34,62,82,62,20,191,163,212,228,62,245,22,105,62,95,172,178,62,19,55,253,62,100,182,248,62,105,138,33,191,228,112,250,62,239,221,3,190,68,36,14,62,104,250,255,255,108,250,255,255,15,0,0,0,77,76,73,82,32,67,111,110,118,101,114,116,101,100,46,0,1,0,0,0,20,0,0,0,0,0,14,0,24,0,20,0,16,0,12,0,8,0,4,0,14,0,0,0,20,0,0,0,28,0,0,0,36,1,0,0,40,1,0,0,44,1,0,0,4,0,0,0,109,97,105,110,0,0,0,0,4,0,0,0,204,0,0,0,132,0,0,0,80,0,0,0,20,0,0,0,0,0,14,0,26,0,20,0,16,0,12,0,11,0,4,0,14,0,0,0,28,0,0,0,0,0,0,9,28,0,0,0,32,0,0,0,1,0,0,0,0,0,6,0,8,0,4,0,6,0,0,0,0,0,128,63,1,0,0,0,10,0,0,0,1,0,0,0,9,0,0,0,154,255,255,255,16,0,0,0,0,0,0,8,12,0,0,0,16,0,0,0,48,251,255,255,1,0,0,0,9,0,0,0,3,0,0,0,8,0,0,0,1,0,0,0,3,0,0,0,202,255,255,255,16,0,0,0,0,0,0,8,16,0,0,0,20,0,0,0,186,255,255,255,0,0,0,1,1,0,0,0,8,0,0,0,3,0,0,0,7,0,0,0,2,0,0,0,4,0,0,0,0,0,14,0,22,0,0,0,16,0,12,0,11,0,4,0,14,0,0,0,24,0,0,0,0,0,0,8,24,0,0,0,28,0,0,0,0,0,6,0,8,0,7,0,6,0,0,0,0,0,0,1,1,0,0,0,7,0,0,0,3,0,0,0,0,0,0,0,6,0,0,0,5,0,0,0,1,0,0,0,10,0,0,0,1,0,0,0,0,0,0,0,11,0,0,0,248,3,0,0,160,3,0,0,72,3,0,0,12,3,0,0,208,2,0,0,116,2,0,0,36,2,0,0,132,1,0,0,228,0,0,0,96,0,0,0,4,0,0,0,74,252,255,255,0,0,0,1,20,0,0,0,28,0,0,0,28,0,0,0,11,0,0,0,52,0,0,0,2,0,0,0,255,255,255,255,2,0,0,0,52,252,255,255,27,0,0,0,83,116,97,116,101,102,117,108,80,97,114,116,105,116,105,111,110,101,100,67,97,108,108,95,49,58,48,0,2,0,0,0,1,0,0,0,2,0,0,0,162,252,255,255,0,0,0,1,20,0,0,0,28,0,0,0,28,0,0,0,10,0,0,0,92,0,0,0,2,0,0,0,255,255,255,255,2,0,0,0,140,252,255,255,64,0,0,0,115,101,113,117,101,110,116,105,97,108,95,50,95,49,47,100,101,110,115,101,95,56,95,49,47,77,97,116,77,117,108,59,115,101,113,117,101,110,116,105,97,108,95,50,95,49,47,100,101,110,115,101,95,56,95,49,47,66,105,97,115,65,100,100,0,0,0,0,2,0,0,0,1,0,0,0,2,0,0,0,34,253,255,255,0,0,0,1,20,0,0,0,28,0,0,0,28,0,0,0,9,0,0,0,120,0,0,0,2,0,0,0,255,255,255,255,16,0,0,0,12,253,255,255,94,0,0,0,115,101,113,117,101,110,116,105,97,108,95,50,95,49,47,100,101,110,115,101,95,55,95,49,47,77,97,116,77,117,108,59,115,101,113,117,101,110,116,105,97,108,95,50,95,49,47,100,101,110,115,101,95,55,95,49,47,82,101,108,117,59,115,101,113,117,101,110,116,105,97,108,95,50,95,49,47,100,101,110,115,101,95,55,95,49,47,66,105,97,115,65,100,100,0,0,2,0,0,0,1,0,0,0,16,0,0,0,190,253,255,255,0,0,0,1,20,0,0,0,28,0,0,0,28,0,0,0,8,0,0,0,120,0,0,0,2,0,0,0,255,255,255,255,16,0,0,0,168,253,255,255,94,0,0,0,115,101,113,117,101,110,116,105,97,108,95,50,95,49,47,100,101,110,115,101,95,54,95,49,47,77,97,116,77,117,108,59,115,101,113,117,101,110,116,105,97,108,95,50,95,49,47,100,101,110,115,101,95,54,95,49,47,82,101,108,117,59,115,101,113,117,101,110,116,105,97,108,95,50,95,49,47,100,101,110,115,101,95,54,95,49,47,66,105,97,115,65,100,100,0,0,2,0,0,0,1,0,0,0,16,0,0,0,174,254,255,255,0,0,0,1,16,0,0,0,16,0,0,0,7,0,0,0,44,0,0,0,52,254,255,255,31,0,0,0,115,101,113,117,101,110,116,105,97,108,95,50,95,49,47,100,101,110,115,101,95,54,95,49,47,77,97,116,77,117,108,0,2,0,0,0,16,0,0,0,100,0,0,0,250,254,255,255,0,0,0,1,16,0,0,0,16,0,0,0,6,0,0,0,60,0,0,0,128,254,255,255,47,0,0,0,115,101,113,117,101,110,116,105,97,108,95,50,95,49,47,100,101,110,115,101,95,54,95,49,47,66,105,97,115,65,100,100,47,82,101,97,100,86,97,114,105,97,98,108,101,79,112,0,1,0,0,0,16,0,0,0,82,255,255,255,0,0,0,1,16,0,0,0,16,0,0,0,5,0,0,0,28,0,0,0,216,254,255,255,15,0,0,0,97,114,105,116,104,46,99,111,110,115,116,97,110,116,51,0,1,0,0,0,16,0,0,0,138,255,255,255,0,0,0,1,16,0,0,0,16,0,0,0,4,0,0,0,28,0,0,0,16,255,255,255,15,0,0,0,97,114,105,116,104,46,99,111,110,115,116,97,110,116,50,0,1,0,0,0,2,0,0,0,194,255,255,255,0,0,0,1,16,0,0,0,16,0,0,0,3,0,0,0,28,0,0,0,72,255,255,255,15,0,0,0,97,114,105,116,104,46,99,111,110,115,116,97,110,116,49,0,2,0,0,0,16,0,0,0,16,0,0,0,0,0,22,0,24,0,20,0,0,0,16,0,12,0,8,0,0,0,0,0,0,0,7,0,22,0,0,0,0,0,0,1,16,0,0,0,16,0,0,0,2,0,0,0,28,0,0,0,156,255,255,255,14,0,0,0,97,114,105,116,104,46,99,111,110,115,116,97,110,116,0,0,2,0,0,0,2,0,0,0,16,0,0,0,0,0,22,0,28,0,24,0,0,0,20,0,16,0,12,0,0,0,0,0,8,0,7,0,22,0,0,0,0,0,0,1,20,0,0,0,32,0,0,0,32,0,0,0,1,0,0,0,64,0,0,0,2,0,0,0,255,255,255,255,100,0,0,0,4,0,4,0,4,0,0,0,32,0,0,0,115,101,114,118,105,110,103,95,100,101,102,97,117,108,116,95,107,101,114,97,115,95,116,101,110,115,111,114,95,56,58,48,0,0,0,0,2,0,0,0,1,0,0,0,100,0,0,0,2,0,0,0,32,0,0,0,4,0,0,0,244,255,255,255,25,0,0,0,0,0,0,25,12,0,12,0,11,0,0,0,0,0,4,0,12,0,0,0,9,0,0,0,0,0,0,9
};

const int model_data_len = 9792;
